#pragma once

namespace Eloquent2 {
    namespace ML {
        namespace Port {
            class RandomForest {
                public:
                    /**
                    * Predict class for features vector
                    */
                    int predict(float *x) {
                        uint8_t votes[2] = { 0 };
                        // tree #1
                        if (x[1] <= 0.491630420088768) {
                            if (x[1] <= 0.4727988839149475) {
                                if (x[0] <= 0.8176666796207428) {
                                    if (x[1] <= 0.3242389112710953) {
                                        votes[1] += 1;
                                    }

                                    else {
                                        if (x[0] <= 0.7989999949932098) {
                                            votes[0] += 1;
                                        }

                                        else {
                                            if (x[1] <= 0.42467381060123444) {
                                                votes[0] += 1;
                                            }

                                            else {
                                                if (x[0] <= 0.8156666457653046) {
                                                    votes[0] += 1;
                                                }

                                                else {
                                                    votes[0] += 1;
                                                }
                                            }
                                        }
                                    }
                                }

                                else {
                                    if (x[1] <= 0.37445636093616486) {
                                        votes[1] += 1;
                                    }

                                    else {
                                        votes[1] += 1;
                                    }
                                }
                            }

                            else {
                                votes[1] += 1;
                            }
                        }

                        else {
                            if (x[0] <= 0.8163333237171173) {
                                if (x[1] <= 0.6925002336502075) {
                                    if (x[1] <= 0.5753261744976044) {
                                        if (x[1] <= 0.5083695650100708) {
                                            if (x[0] <= 0.7970000207424164) {
                                                votes[0] += 1;
                                            }

                                            else {
                                                votes[0] += 1;
                                            }
                                        }

                                        else {
                                            votes[0] += 1;
                                        }
                                    }

                                    else {
                                        votes[0] += 1;
                                    }
                                }

                                else {
                                    votes[1] += 1;
                                }
                            }

                            else {
                                if (x[0] <= 0.8236666619777679) {
                                    if (x[0] <= 0.8183333277702332) {
                                        if (x[1] <= 0.5418478846549988) {
                                            if (x[0] <= 0.8176666796207428) {
                                                votes[1] += 1;
                                            }

                                            else {
                                                if (x[1] <= 0.5083695650100708) {
                                                    votes[0] += 1;
                                                }

                                                else {
                                                    votes[1] += 1;
                                                }
                                            }
                                        }

                                        else {
                                            votes[1] += 1;
                                        }
                                    }

                                    else {
                                        votes[1] += 1;
                                    }
                                }

                                else {
                                    if (x[0] <= 0.8409999907016754) {
                                        votes[1] += 1;
                                    }

                                    else {
                                        votes[1] += 1;
                                    }
                                }
                            }
                        }

                        // tree #2
                        if (x[1] <= 0.491630420088768) {
                            if (x[0] <= 0.8183333277702332) {
                                if (x[1] <= 0.2572823017835617) {
                                    votes[1] += 1;
                                }

                                else {
                                    if (x[1] <= 0.4748912751674652) {
                                        if (x[0] <= 0.7983333170413971) {
                                            votes[0] += 1;
                                        }

                                        else {
                                            votes[0] += 1;
                                        }
                                    }

                                    else {
                                        if (x[0] <= 0.7976666688919067) {
                                            votes[0] += 1;
                                        }

                                        else {
                                            if (x[0] <= 0.8163333237171173) {
                                                votes[0] += 1;
                                            }

                                            else {
                                                votes[1] += 1;
                                            }
                                        }
                                    }
                                }
                            }

                            else {
                                if (x[0] <= 0.8236666619777679) {
                                    if (x[0] <= 0.8210000097751617) {
                                        votes[1] += 1;
                                    }

                                    else {
                                        votes[1] += 1;
                                    }
                                }

                                else {
                                    if (x[0] <= 0.8570000231266022) {
                                        votes[1] += 1;
                                    }

                                    else {
                                        votes[1] += 1;
                                    }
                                }
                            }
                        }

                        else {
                            if (x[0] <= 0.8149999976158142) {
                                if (x[0] <= 0.7976666688919067) {
                                    if (x[1] <= 0.7092393934726715) {
                                        if (x[0] <= 0.3136666608043015) {
                                            votes[1] += 1;
                                        }

                                        else {
                                            votes[0] += 1;
                                        }
                                    }

                                    else {
                                        votes[1] += 1;
                                    }
                                }

                                else {
                                    if (x[0] <= 0.8036666810512543) {
                                        if (x[1] <= 0.5083695650100708) {
                                            if (x[0] <= 0.8023333251476288) {
                                                votes[1] += 1;
                                            }

                                            else {
                                                votes[0] += 1;
                                            }
                                        }

                                        else {
                                            votes[1] += 1;
                                        }
                                    }

                                    else {
                                        if (x[1] <= 0.6255436539649963) {
                                            if (x[0] <= 0.8116666674613953) {
                                                votes[0] += 1;
                                            }

                                            else {
                                                votes[0] += 1;
                                            }
                                        }

                                        else {
                                            votes[1] += 1;
                                        }
                                    }
                                }
                            }

                            else {
                                votes[1] += 1;
                            }
                        }

                        // tree #3
                        if (x[0] <= 0.8149999976158142) {
                            if (x[0] <= 0.7970000207424164) {
                                if (x[0] <= 0.5596666634082794) {
                                    votes[1] += 1;
                                }

                                else {
                                    if (x[1] <= 0.7092393934726715) {
                                        if (x[1] <= 0.2823910266160965) {
                                            votes[1] += 1;
                                        }

                                        else {
                                            votes[0] += 1;
                                        }
                                    }

                                    else {
                                        votes[1] += 1;
                                    }
                                }
                            }

                            else {
                                if (x[1] <= 0.491630420088768) {
                                    if (x[0] <= 0.8043333292007446) {
                                        votes[0] += 1;
                                    }

                                    else {
                                        if (x[0] <= 0.8136666715145111) {
                                            votes[0] += 1;
                                        }

                                        else {
                                            votes[0] += 1;
                                        }
                                    }
                                }

                                else {
                                    if (x[0] <= 0.804999977350235) {
                                        if (x[1] <= 0.5083695650100708) {
                                            votes[0] += 1;
                                        }

                                        else {
                                            if (x[0] <= 0.7989999949932098) {
                                                votes[0] += 1;
                                            }

                                            else {
                                                votes[1] += 1;
                                            }
                                        }
                                    }

                                    else {
                                        if (x[1] <= 0.6088044941425323) {
                                            votes[0] += 1;
                                        }

                                        else {
                                            votes[1] += 1;
                                        }
                                    }
                                }
                            }
                        }

                        else {
                            if (x[0] <= 0.8223333358764648) {
                                if (x[1] <= 0.491630420088768) {
                                    if (x[1] <= 0.4414129704236984) {
                                        votes[1] += 1;
                                    }

                                    else {
                                        votes[1] += 1;
                                    }
                                }

                                else {
                                    if (x[0] <= 0.8183333277702332) {
                                        votes[1] += 1;
                                    }

                                    else {
                                        votes[1] += 1;
                                    }
                                }
                            }

                            else {
                                if (x[1] <= 0.491630420088768) {
                                    if (x[0] <= 0.8336666524410248) {
                                        votes[1] += 1;
                                    }

                                    else {
                                        if (x[0] <= 0.8563333451747894) {
                                            votes[1] += 1;
                                        }

                                        else {
                                            votes[1] += 1;
                                        }
                                    }
                                }

                                else {
                                    votes[1] += 1;
                                }
                            }
                        }

                        // tree #4
                        if (x[1] <= 0.491630420088768) {
                            if (x[0] <= 0.8149999976158142) {
                                if (x[0] <= 0.7970000207424164) {
                                    if (x[0] <= 0.5600000023841858) {
                                        votes[1] += 1;
                                    }

                                    else {
                                        if (x[1] <= 0.3242389112710953) {
                                            votes[1] += 1;
                                        }

                                        else {
                                            votes[0] += 1;
                                        }
                                    }
                                }

                                else {
                                    if (x[0] <= 0.804999977350235) {
                                        votes[0] += 1;
                                    }

                                    else {
                                        votes[0] += 1;
                                    }
                                }
                            }

                            else {
                                if (x[1] <= 0.4727988839149475) {
                                    if (x[1] <= 0.39119552075862885) {
                                        votes[1] += 1;
                                    }

                                    else {
                                        if (x[0] <= 0.8223333358764648) {
                                            votes[1] += 1;
                                        }

                                        else {
                                            if (x[0] <= 0.847000002861023) {
                                                votes[1] += 1;
                                            }

                                            else {
                                                votes[1] += 1;
                                            }
                                        }
                                    }
                                }

                                else {
                                    if (x[0] <= 0.8243333399295807) {
                                        if (x[0] <= 0.8210000097751617) {
                                            votes[1] += 1;
                                        }

                                        else {
                                            votes[1] += 1;
                                        }
                                    }

                                    else {
                                        votes[1] += 1;
                                    }
                                }
                            }
                        }

                        else {
                            if (x[1] <= 0.5083695650100708) {
                                if (x[0] <= 0.8163333237171173) {
                                    if (x[0] <= 0.7970000207424164) {
                                        if (x[0] <= 0.31433333875611424) {
                                            votes[1] += 1;
                                        }

                                        else {
                                            votes[0] += 1;
                                        }
                                    }

                                    else {
                                        votes[0] += 1;
                                    }
                                }

                                else {
                                    if (x[0] <= 0.8210000097751617) {
                                        if (x[0] <= 0.8190000057220459) {
                                            votes[1] += 1;
                                        }

                                        else {
                                            votes[1] += 1;
                                        }
                                    }

                                    else {
                                        if (x[0] <= 0.8369999825954437) {
                                            votes[1] += 1;
                                        }

                                        else {
                                            votes[1] += 1;
                                        }
                                    }
                                }
                            }

                            else {
                                votes[1] += 1;
                            }
                        }

                        // tree #5
                        if (x[1] <= 0.491630420088768) {
                            if (x[1] <= 0.4727988839149475) {
                                if (x[1] <= 0.35771720111370087) {
                                    if (x[1] <= 0.2740214467048645) {
                                        votes[1] += 1;
                                    }

                                    else {
                                        votes[1] += 1;
                                    }
                                }

                                else {
                                    if (x[0] <= 0.8190000057220459) {
                                        if (x[0] <= 0.7970000207424164) {
                                            votes[0] += 1;
                                        }

                                        else {
                                            if (x[0] <= 0.8143333494663239) {
                                                votes[0] += 1;
                                            }

                                            else {
                                                votes[0] += 1;
                                            }
                                        }
                                    }

                                    else {
                                        if (x[1] <= 0.42467381060123444) {
                                            votes[1] += 1;
                                        }

                                        else {
                                            votes[1] += 1;
                                        }
                                    }
                                }
                            }

                            else {
                                if (x[0] <= 0.8163333237171173) {
                                    if (x[0] <= 0.7956666648387909) {
                                        votes[0] += 1;
                                    }

                                    else {
                                        votes[0] += 1;
                                    }
                                }

                                else {
                                    if (x[0] <= 0.8229999840259552) {
                                        votes[1] += 1;
                                    }

                                    else {
                                        votes[1] += 1;
                                    }
                                }
                            }
                        }

                        else {
                            if (x[0] <= 0.8149999976158142) {
                                if (x[0] <= 0.7976666688919067) {
                                    if (x[0] <= 0.5526666790246964) {
                                        votes[1] += 1;
                                    }

                                    else {
                                        votes[0] += 1;
                                    }
                                }

                                else {
                                    if (x[0] <= 0.8070000112056732) {
                                        if (x[0] <= 0.7983333170413971) {
                                            votes[1] += 1;
                                        }

                                        else {
                                            votes[1] += 1;
                                        }
                                    }

                                    else {
                                        if (x[1] <= 0.5753261744976044) {
                                            if (x[0] <= 0.8089999854564667) {
                                                votes[0] += 1;
                                            }

                                            else {
                                                votes[0] += 1;
                                            }
                                        }

                                        else {
                                            votes[1] += 1;
                                        }
                                    }
                                }
                            }

                            else {
                                if (x[0] <= 0.8216666877269745) {
                                    votes[1] += 1;
                                }

                                else {
                                    votes[1] += 1;
                                }
                            }
                        }

                        // tree #6
                        if (x[1] <= 0.491630420088768) {
                            if (x[1] <= 0.4727988839149475) {
                                if (x[0] <= 0.8143333494663239) {
                                    if (x[1] <= 0.2572823017835617) {
                                        votes[1] += 1;
                                    }

                                    else {
                                        votes[0] += 1;
                                    }
                                }

                                else {
                                    if (x[1] <= 0.42467381060123444) {
                                        votes[1] += 1;
                                    }

                                    else {
                                        votes[1] += 1;
                                    }
                                }
                            }

                            else {
                                votes[1] += 1;
                            }
                        }

                        else {
                            if (x[1] <= 0.5083695650100708) {
                                if (x[0] <= 0.81700000166893) {
                                    if (x[0] <= 0.7970000207424164) {
                                        if (x[0] <= 0.31433333875611424) {
                                            votes[1] += 1;
                                        }

                                        else {
                                            votes[0] += 1;
                                        }
                                    }

                                    else {
                                        if (x[0] <= 0.8023333251476288) {
                                            votes[0] += 1;
                                        }

                                        else {
                                            if (x[0] <= 0.8149999976158142) {
                                                votes[0] += 1;
                                            }

                                            else {
                                                votes[1] += 1;
                                            }
                                        }
                                    }
                                }

                                else {
                                    if (x[0] <= 0.8236666619777679) {
                                        if (x[0] <= 0.8190000057220459) {
                                            votes[1] += 1;
                                        }

                                        else {
                                            votes[1] += 1;
                                        }
                                    }

                                    else {
                                        votes[1] += 1;
                                    }
                                }
                            }

                            else {
                                if (x[1] <= 0.9268483817577362) {
                                    if (x[0] <= 0.8149999976158142) {
                                        if (x[1] <= 0.6590219438076019) {
                                            if (x[0] <= 0.7976666688919067) {
                                                votes[0] += 1;
                                            }

                                            else {
                                                if (x[0] <= 0.8063333332538605) {
                                                    votes[1] += 1;
                                                }

                                                else {
                                                    if (x[0] <= 0.8096666634082794) {
                                                        votes[0] += 1;
                                                    }

                                                    else {
                                                        votes[1] += 1;
                                                    }
                                                }
                                            }
                                        }

                                        else {
                                            votes[1] += 1;
                                        }
                                    }

                                    else {
                                        votes[1] += 1;
                                    }
                                }

                                else {
                                    votes[1] += 1;
                                }
                            }
                        }

                        // tree #7
                        if (x[0] <= 0.8149999976158142) {
                            if (x[0] <= 0.7963333427906036) {
                                if (x[0] <= 0.5596666634082794) {
                                    votes[1] += 1;
                                }

                                else {
                                    if (x[1] <= 0.7092393934726715) {
                                        if (x[1] <= 0.2656518667936325) {
                                            votes[1] += 1;
                                        }

                                        else {
                                            votes[0] += 1;
                                        }
                                    }

                                    else {
                                        votes[1] += 1;
                                    }
                                }
                            }

                            else {
                                if (x[1] <= 0.491630420088768) {
                                    if (x[1] <= 0.4748912751674652) {
                                        if (x[0] <= 0.8143333494663239) {
                                            if (x[0] <= 0.804999977350235) {
                                                if (x[0] <= 0.7989999949932098) {
                                                    votes[0] += 1;
                                                }

                                                else {
                                                    votes[0] += 1;
                                                }
                                            }

                                            else {
                                                votes[0] += 1;
                                            }
                                        }

                                        else {
                                            votes[0] += 1;
                                        }
                                    }

                                    else {
                                        if (x[0] <= 0.8056666553020477) {
                                            votes[0] += 1;
                                        }

                                        else {
                                            if (x[0] <= 0.8110000193119049) {
                                                votes[0] += 1;
                                            }

                                            else {
                                                votes[0] += 1;
                                            }
                                        }
                                    }
                                }

                                else {
                                    if (x[0] <= 0.8070000112056732) {
                                        if (x[0] <= 0.7976666688919067) {
                                            votes[0] += 1;
                                        }

                                        else {
                                            if (x[1] <= 0.5083695650100708) {
                                                votes[0] += 1;
                                            }

                                            else {
                                                votes[1] += 1;
                                            }
                                        }
                                    }

                                    else {
                                        votes[0] += 1;
                                    }
                                }
                            }
                        }

                        else {
                            if (x[1] <= 0.491630420088768) {
                                if (x[1] <= 0.4727988839149475) {
                                    if (x[0] <= 0.8215000033378601) {
                                        votes[1] += 1;
                                    }

                                    else {
                                        if (x[0] <= 0.839000016450882) {
                                            votes[1] += 1;
                                        }

                                        else {
                                            votes[1] += 1;
                                        }
                                    }
                                }

                                else {
                                    votes[1] += 1;
                                }
                            }

                            else {
                                votes[1] += 1;
                            }
                        }

                        // tree #8
                        if (x[1] <= 0.491630420088768) {
                            if (x[0] <= 0.8183333277702332) {
                                if (x[0] <= 0.7970000207424164) {
                                    if (x[1] <= 0.2740214467048645) {
                                        votes[1] += 1;
                                    }

                                    else {
                                        if (x[1] <= 0.34097805619239807) {
                                            votes[0] += 1;
                                        }

                                        else {
                                            if (x[0] <= 0.6103333532810211) {
                                                votes[1] += 1;
                                            }

                                            else {
                                                votes[0] += 1;
                                            }
                                        }
                                    }
                                }

                                else {
                                    if (x[1] <= 0.40793466567993164) {
                                        votes[1] += 1;
                                    }

                                    else {
                                        if (x[1] <= 0.4748912751674652) {
                                            votes[0] += 1;
                                        }

                                        else {
                                            votes[0] += 1;
                                        }
                                    }
                                }
                            }

                            else {
                                if (x[0] <= 0.8215000033378601) {
                                    votes[1] += 1;
                                }

                                else {
                                    if (x[0] <= 0.8303333222866058) {
                                        votes[1] += 1;
                                    }

                                    else {
                                        if (x[0] <= 0.8570000231266022) {
                                            votes[1] += 1;
                                        }

                                        else {
                                            votes[1] += 1;
                                        }
                                    }
                                }
                            }
                        }

                        else {
                            if (x[0] <= 0.8156666457653046) {
                                if (x[0] <= 0.7976666688919067) {
                                    if (x[1] <= 0.6757611036300659) {
                                        votes[0] += 1;
                                    }

                                    else {
                                        votes[1] += 1;
                                    }
                                }

                                else {
                                    if (x[0] <= 0.8063333332538605) {
                                        if (x[0] <= 0.8036666810512543) {
                                            if (x[0] <= 0.7989999949932098) {
                                                votes[0] += 1;
                                            }

                                            else {
                                                votes[1] += 1;
                                            }
                                        }

                                        else {
                                            votes[1] += 1;
                                        }
                                    }

                                    else {
                                        if (x[0] <= 0.8103333413600922) {
                                            votes[0] += 1;
                                        }

                                        else {
                                            if (x[0] <= 0.8149999976158142) {
                                                votes[0] += 1;
                                            }

                                            else {
                                                votes[1] += 1;
                                            }
                                        }
                                    }
                                }
                            }

                            else {
                                votes[1] += 1;
                            }
                        }

                        // tree #9
                        if (x[1] <= 0.491630420088768) {
                            if (x[1] <= 0.4727988839149475) {
                                if (x[1] <= 0.35771720111370087) {
                                    if (x[0] <= 0.8163333237171173) {
                                        if (x[1] <= 0.2740214467048645) {
                                            votes[1] += 1;
                                        }

                                        else {
                                            votes[0] += 1;
                                        }
                                    }

                                    else {
                                        votes[1] += 1;
                                    }
                                }

                                else {
                                    votes[1] += 1;
                                }
                            }

                            else {
                                if (x[0] <= 0.8183333277702332) {
                                    if (x[0] <= 0.7963333427906036) {
                                        votes[0] += 1;
                                    }

                                    else {
                                        if (x[0] <= 0.8143333494663239) {
                                            votes[0] += 1;
                                        }

                                        else {
                                            votes[0] += 1;
                                        }
                                    }
                                }

                                else {
                                    if (x[0] <= 0.8229999840259552) {
                                        votes[1] += 1;
                                    }

                                    else {
                                        votes[1] += 1;
                                    }
                                }
                            }
                        }

                        else {
                            if (x[1] <= 0.5083695650100708) {
                                if (x[0] <= 0.8149999976158142) {
                                    if (x[0] <= 0.7976666688919067) {
                                        if (x[0] <= 0.3146666777320206) {
                                            votes[1] += 1;
                                        }

                                        else {
                                            votes[0] += 1;
                                        }
                                    }

                                    else {
                                        votes[0] += 1;
                                    }
                                }

                                else {
                                    if (x[0] <= 0.820333331823349) {
                                        votes[1] += 1;
                                    }

                                    else {
                                        votes[1] += 1;
                                    }
                                }
                            }

                            else {
                                if (x[0] <= 0.8149999976158142) {
                                    if (x[0] <= 0.7963333427906036) {
                                        if (x[1] <= 0.7092393934726715) {
                                            votes[0] += 1;
                                        }

                                        else {
                                            votes[1] += 1;
                                        }
                                    }

                                    else {
                                        if (x[1] <= 0.6590219438076019) {
                                            if (x[0] <= 0.804999977350235) {
                                                votes[1] += 1;
                                            }

                                            else {
                                                votes[0] += 1;
                                            }
                                        }

                                        else {
                                            votes[1] += 1;
                                        }
                                    }
                                }

                                else {
                                    votes[1] += 1;
                                }
                            }
                        }

                        // tree #10
                        if (x[0] <= 0.81700000166893) {
                            if (x[0] <= 0.7976666688919067) {
                                if (x[0] <= 0.6103333532810211) {
                                    votes[1] += 1;
                                }

                                else {
                                    if (x[1] <= 0.6757611036300659) {
                                        votes[0] += 1;
                                    }

                                    else {
                                        votes[1] += 1;
                                    }
                                }
                            }

                            else {
                                if (x[0] <= 0.8043333292007446) {
                                    if (x[1] <= 0.5083695650100708) {
                                        votes[0] += 1;
                                    }

                                    else {
                                        votes[1] += 1;
                                    }
                                }

                                else {
                                    if (x[1] <= 0.6255436539649963) {
                                        if (x[0] <= 0.8149999976158142) {
                                            if (x[1] <= 0.491630420088768) {
                                                if (x[0] <= 0.8136666715145111) {
                                                    votes[0] += 1;
                                                }

                                                else {
                                                    votes[0] += 1;
                                                }
                                            }

                                            else {
                                                votes[0] += 1;
                                            }
                                        }

                                        else {
                                            if (x[1] <= 0.491630420088768) {
                                                if (x[1] <= 0.4414129704236984) {
                                                    votes[1] += 1;
                                                }

                                                else {
                                                    votes[0] += 1;
                                                }
                                            }

                                            else {
                                                votes[1] += 1;
                                            }
                                        }
                                    }

                                    else {
                                        votes[1] += 1;
                                    }
                                }
                            }
                        }

                        else {
                            if (x[1] <= 0.491630420088768) {
                                if (x[1] <= 0.4748912751674652) {
                                    if (x[1] <= 0.40793466567993164) {
                                        votes[1] += 1;
                                    }

                                    else {
                                        votes[1] += 1;
                                    }
                                }

                                else {
                                    if (x[0] <= 0.8216666877269745) {
                                        votes[1] += 1;
                                    }

                                    else {
                                        if (x[0] <= 0.8236666619777679) {
                                            votes[1] += 1;
                                        }

                                        else {
                                            votes[1] += 1;
                                        }
                                    }
                                }
                            }

                            else {
                                if (x[0] <= 0.8236666619777679) {
                                    votes[1] += 1;
                                }

                                else {
                                    if (x[0] <= 0.8556666672229767) {
                                        votes[1] += 1;
                                    }

                                    else {
                                        votes[1] += 1;
                                    }
                                }
                            }
                        }

                        // return argmax of votes
                        uint8_t classIdx = 0;
                        float maxVotes = votes[0];

                        for (uint8_t i = 1; i < 2; i++) {
                            if (votes[i] > maxVotes) {
                                classIdx = i;
                                maxVotes = votes[i];
                            }
                        }

                        return classIdx;
                    }

                protected:
                };
            }
        }
    }
